007df1b32df13f7f0
0e51f19e7c52bbd11
081d0ba0b2ff905df
01febf3dfc70257d9
004fe4d06d604e008
0fd3e03c4d5d3f6cc
14e1421f6e4fe1c09
1dbd95827e60f06e2
1ecfad9fcf11324fd
13711240d1d063307
106e53415f2212ad9
10844e4ce1fc71e0b
22fff642dcd00c7e4
2f7e0100f27d5c5e1
2e8f6f3070a42f403
2fe251b24c6e71dee
225f70c2b2305df2c
21b1ef7eddff6d5e5
34401121c0d1bd53b
31bcfe3cc27ce0128
3122309fae1f03133
3d9e328bdea19fb12
328d51a102c15e538
3c0f3d0262a08f9e9
40ff53cf2d3ce0e1e
4fb1024ec1312e40f
4dc22fe1ad13edd21
42436ffb5c1f31621
4141efd240143d52a
4f105aa0748e612d8
53d023afadeff2b26
5f8d33cc8fb12192e
50e07e636d63b0919
5f738f9c6241c05dc
522055dd00930e8e3
5ad18b30944cb3fcf
6e03b0cd6a317cb1b
602addcf1e8341c0a
6351ecced0ff73010
6070ef6ecb90627c4
603034c16e208e3dd
62003f3dd24c5f5bf
74eec28f50320fc0b
73d1e26deca05ec16
703242115e802f119
727f608cfbeb9f1ef
71f066135dc37fb07
720ee2c0c35f7fcbe
8340c1d30b12cd721
8eb13eefc1dfac4df
82920e52c3224e43a
83e4621221fb9d3c4
813e045e41efecceb
81f100825e7203ef1
90000655b00001f61
affffda5fffffc1db
bffffef97ffffe176
cffff482c0000a081
d00003c20ffffd8a6
e000006a300006499
f00001652000005ff
10ffff4a25ffff704f
110000000001c85776
122ffd0c3915fcfcf4
126029ecfafaecd546
12eb00eeebffeeeb08
12bcf011f7eceb30c5
1245eefd3804f800f4
127227fef6f8f8d352
1247fe03400ef8f2ef
127933ef02f7f3de51
12f4fdf1ec0a03ef05
12c4ed2a00fbf528ad
123ff0fd40fbfef4ee
12762df8f6f5f8de50
124c00fb3efdedf7f7
127531fceefef3dc4e
12fc07f7e600fcf902
12c0f017fce40137b3
12eafee3f607f3ebfd
12bde32303edfa32ba
1255f50639fcfdfcea
126d2cf4f901f4db4f
1240fe05370eeff6eb
12792ff7f505ffd453
12d500f0e0f7faf9fe
12cfee13eff1f610cc
12e1f4eae706f4fa04
12cddb28fbf00333ae
1234f8ff2b08f1fffb
12752efeef0cf0d93f
1242fb093d02fbfff3
127f29f902f600da52
12e3f0f5f103f1f2f6
12c3ee2600e4ff25a3
133efd0f2301f8f7fd
13622bee03fafccd49
13f5eeecde11f1f60e
13d8e61ef8e2f127b9
1351f9fc1b0802f9f5
136934fafdfff9cc45
134df10b290df6f8ef
13733bfe04f8ecde4d
130305e6d9fdf5f00d
13b4fa2801f4ff1cbd
134efe033405f2f9ed
136e23f8fefcf8d23e
134af607260df2fef8
13732ffff5fcf1da43
1311f9f7db06fff610
13c0f537f8e7f524d1
13ee01ebc5feffe908
13ccef2cf8ebfd0dbd
134af903300cfbf3fb
13693cfcfb00eecf3e
1342020d27fdfd03e8
136d30eaeffef6dd49
13f3f4e2daf203edfb
13c5ee1bf1e70913ca
1301fbf0dc0a03ea07
13c0e734fbf2f31dbb
1350f4031c06f3feeb
136b24fcf309f2d140
134cf2fd1f11f6feff
137737fff7f6edc948
13fcf6f1c7fef8e90c
13c5ee1ef4e0f11ec7
1445f2103011fd02f9
145715faf10af9e840
14ebfbf4d40bf8fa08
14beed2afeebfe1ddc
1446f7fa2bfbf8f1f1
145425ecfefeeccf33
1446f61737040007f5
14631df4f00cf3db3b
14f1f9f9d10b05f4fb
14c9e930f6f00816de
1446faff3af9f300ef
147423ec00f6f5e838
1441f50736fcf002f6
145929f2f4fdfee739
14fcf0f0ca0bf4e70a
14c0e83101f1011bc2
14e903e7d7f7f1fc02
14c9df1801f0031ccd
1442ed072605eff9f6
14592df4fc0600e031
1435f109350304f6fc
145a1fe8f9fef8da3d
14e8fef3d404fb0510
14c4de0ef7f6fe1acc
14ed06efdb0501e80c
14bce92dfaf4fc11d5
144df4ff2e00efeeeb
145f2af4030503d735
1441ef013903eeeffc
14621a01fe06fdd647
14e5f7e4dcf6f7fefe
14cdd22402e80518d0
151af8023006ec00f1
156924f502f6ebc546
1503f9f2ec0ffcf70d
15defb22fef9f041d6
1524eeff40f9f6fff7
156530f2f80900c647
1526f20832f8f405fe
15622fe8f801f8d63d
15e3fbf6d9f9f7ebfe
15def925f5f1f339cd
1524f00521fcfcf8f8
154027edf9f7f3c43b
1527ff0528faff00fc
15492bedfc00f9bd44
15def1e8dd0af0ff05
15d8f02df2edf43ece
15fef4eaec0406fc10
15d0fb2cf0ef0634cc
1532f71231fcf1f5f0
155d31f2f403f7d34b
1520f00c26fff0f1eb
152c20f6f0fdedc732
15dafdeeddf400edfd
15daf71201e70424bd
15e0f1f2d5f7f3fc05
15e5ef36f3f2013ccd
151c040d3cefeff5ed
155b24f3f70affdd4d
1523f5103bffeefff3
156236f7f1faf1bf4c
15f604e9e30a020103
15dffa2efbfafc3fcb
1621f4002209faf7ec
166f27f3f4f3fdcf3c
161801f2dbf9f3fb00
16cef43701edfc38d2
1622fb073306f6fcff
166723ef0004fede3c
1626fb0125050004f3
166431f2f7f3f3d82c
16f7fcf1dbfbf1ed00
16d2eb3a03e0f323e0
161cf5071914f506f2
164217f9fe02ede12d
1629f60b1bfafefcf4
164e15ed00f0fece3c
16ea04e7cb0301ed0f
16dcf628f3e4f229d6
1605f5e4c2fef3fe0e
16d0f83df7e3f632e3
162cf5053005f103f6
165e2febf0f2eccf3d
161ef20c1403fff2f4
163e12f304f801d42a
16f6f8e6dceffeff12
16d8e913f5eafa14e0
16f604efd6fbf8eb07
16c4f82606f50332df
162af3022103fcfcef
166821f7f402edd939
1623010a26fbfa02f1
16692eecf0efebd83d
1603f2f6c80501f90a
16c9ea28fbecfb1ad9
1720ed0733ebebfdfb
175b1becfcf8f5d233
170ff1f9cf01fcf9fa
17bbf62ceae1fe38df
1719000d3bfbfcfcf6
174c21f1f801f1d539
1714021234fdf600f1
174525ea0301face23
17e9f2f8ccfb05ee11
17bff52ff7ebfa28da
1704000022f7f0fbeb
173411f3f509eee224
171afe083600f6f4eb
17420be9f6ff01cb33
17dff8ebc30ff9fe0c
17c1dd2801e1022edc
17edf6e5b605f6f50b
17bfea35eeef062de2
171af2132ff1f402f9
174e15e701f5f6d336
1711f20933eaeff2f6
171b12e9f406f6d621
17e0f1f8c70901f405
17bde919f7f10124dd
17f4f9f4c107f7fdfc
17bbef3afce9f92cd5
1714fd0733e400faf5
17560fe5f505f1d235
170cf1fd3bebfb00e6
174722f60203f4d140
17ea01efb60105fe04
17cae52ff1e20237cf
1831f51044f9f2f3f5
184e32eaff0d03ce53
18e800efe610f1eb04
18dff82803fdff41c1
182df8133002ecfff2
184b1cfaf203f5c74b
1830f9ff3205fd00f0
183e1eebee05f9d04d
18dffde6eafaf6fffd
18deed2c04f40334bb
1844f3113f0500ffec
185523f80500f7bf57
1842ef003b05fbf0f2
18562ff8f002eec159
18d6f3f8edfbf7e8fd
18d3ee34fbf10045c8
18e8f8f8ef0802f90a
18d3f03005ee0031bc
1831030f42fdf3f1fa
184a25ed01f7fec54b
1837fe0b3af70000ef
184d1ceef70900d04c
18d403e5d801effbfb
18d2e326ffeb0729be
18def9f4e60cfeec0d
18dff025fbea0040c8
182ef50633fdfb07f6
183c2c00f909f1cc4d
1831f70b3c06fbf0f6
18401f03ed03f4c944
18e0f8f3e2fff9f70e
18d1f327fcf3f633b9
193cf4fe1bfcf6f4f7
19421ef0effdf9ca43
19deecf6e30b00ed00
19dadb2cf3e1f93cdc
1931f2051af400f7fd
19401bf0f905eec743
193500011a06f1efee
192919eaf30aeccc4c
19f1f0efd80e01eefe
19e2e233fee4f833c9
193cf1112c0503faf4
194e18eff305fee049
194500092500edfcf4
194825fa020100cd57
19f6f1f6dc00f0ea0d
19d7e430fee0032fcd
19e4f2e5db12f0ed05
19d9d526fdf60330c0
193300132203fc07f0
193b24f10102eccf43
1931fe04240a0505f0
194c25e8f8fcecdc3f
19e300f0e0f7040111
19dfe321fdecfd1ec6
19e6f8eae705f2e904
19dbdb21f6edf834c7
193001051600f807fe
193322ebf901f4dc3d
193dfc062206effeea
193626faf306ecc442
19cafcf7d10ef2fd04
19dde232f4ee053ada
1a32f8f82905f8f1e8
1a3d2bf2030500cf36
1ae6f9f1d914fcf510
1aceeb2cfce3ed30d3
1a3502fc30fdeffbee
1a3a29e9eff6ecc734
1a31f4063806edf2f5
1a3a1be9ff07ebc837
1addf2eacc00ffee12
1ac6ec2602f9f52cd1
1a3cf90837fcfdfbf1
1a4820f4f9fdfdc541
1a34f6fc3709f7f5f4
1a562cf7f301f3cd4a
1ae106f3d70afbeb0b
1acae338f0eef62ad6
1ae4fdeddb03f2fe0c
1ac5df36f6e6fb2ddc
1a2bf4002909f3faef
1a3c1ee7f4fbf3d93e
1a3dfafb33040604ec
1a4f1aedfc05f2cb3b
1acf05e4da0003ed05
1acdee14f4f4f914d7
1ae6f0ebd10af1f713
1ac5da2ef9ecfe2cec
1a31f9fc290af607ea
1a3420e7f108fccc35
1a32030131f1fcf4f2
1a4525f1fb08f2cd41
1ac7f6f0c706f1fbfa
1ad4e92bf9e5f72dca
1b00000305fffff547
1cfffffcc6fffff55b
1dfffff8e4fffff352
1efffffae9ffffe5f7
1ffffffba1ffffe7c1
2000000514fffff7ee
21ffffe8e9fffff88a
22ffffe63affffec20
23000000000001abe3
243289c8179fde24cd
240faabe0513c6a415
242fbea528b3b2f5bb
24319ad12315ba8e1c
2411abbd17d3c003ce
243191ba0e10a9a6f4
24cd351ff43b26d538
24c45809c5f6085ddc
24c8641dc6411ccd55
24b44c46c2ed0c62e7
2405a4a5f9899d29c8
242383c235f3e0a5ff
240e97c60da1d209c6
24319bbc21f2cac823
24efaab32ab68d248f
242893bd06f7adc82b
24d2252dbc3d4dca49
24b8630bded61c2cbe
241b8b90f1d98ffc96
24e5adc519f4de8916
241d9fc9f2b3baf6da
24f498c40f0fc88809
2410a7bdfca6bef2b0
24fe96a2ff11e2c838
24fab4bf1abbcaee97
24f192d10d16cfbc0d
24d4542fd40f210a2a
24bb5922f6e0395dfc
24efb8c7ebcd9eedba
2420cfbffe08b8950e
24f2c28f1abbaceace
242c8fa8f4fcd4a138
252e9c8d41a0bf07c5
25168aa9320ec79b47
2535908c43a6af3c8f
2527b8bd3507d68240
2511ae9705c2a919a8
2533bda43903d8bc03
25ed583ce93319ff2d
25ea350c07d93a56cd
25fe5832c12c380052
25d95608e7c0021aff
254a82b602a1a4fdbc
2504bedf470bc3c623
253591a419d3d33ba4
252c98ba2ceb979e4d
2516b3a22bb3ab1498
2516b1a72b00a29d29
25d14e1ee45619f548
25c5452ac1dc3d38eb
2500a0b32794a60cd2
2526a29d21e1e19f35
253b8cb92ab29c44ca
2511c4b61928dcb6fe
254e80bc3e8f9624b8
253abd9e141695b425
25098e9e11d0d92ca6
25fc8bc82019a7c535
25e7321df536210016
25d22e13e3023654cc
252284a84093c241b1
251e83b00f24c4b821
252cb39b4783b211cc
25299fd23d189db646
26338d9d168bce05c4
2612cab74204d49031
261dbcb806b5cc2dca
263795cc05e9aeb006
2631c3940093b819a7
262ec6dd421faca418
26c84b21d41607e705
260e15ffc8f1343905
26de5531030d2ddf0e
26fc3318c6d6f437fd
263bc6cf0693ab16c0
263bc9b43d20d2c23e
2611b5b02fd3bc3f9c
263fb8d031f9cbcc29
2622c3c0399fdc26d1
2629c2d7400fc4a618
26e14527064215062c
26013f23dcfe0e2ef4
2627d6e509c8b603a9
2635ccc1291fbf99f8
26419cd843d2d338c6
262097a3070de2c50a
263b8dd327c4bb46c7
2620d8bb162bce882c
263e91b51ec2abf6aa
263997aefff3c4a001
26dc4a4ffe1a49ea24
26fa1f19cee70147dc
2652979f09a1bf07bd
2628a7bd261ebcb516
261ed0b71dc19f09cb
263db2c9251bbecf4c
273bd6a61db9bbfebd
272bb8d9350fc4bdf4
2731ede202dbbd38c1
2739aee70406cfc02e
2731add936dbbc09c0
2727cefe30ebb8e91b
27e35719df0b420348
27ce132be8e41830ce
27dd2543f70614ca48
27ef59f1f2030e29e1
2735c2baffa9c924c6
27f5bfe92d03d0c104
2747b4c6fcefce00e8
271acbcb0b09e7c71d
273eeae402afc0fbb8
2739b2f01de6e0c428
27f64911f9303fe036
27ec1f00c8e43b06c8
27f5baea31f7f51cda
2728c9c20106cfd437
2727ddcbfecbfb05d0
27f5b2ca2de4b2ab17
2732e2c107ddb926ae
270eedc70de2ecb222
2712b0ed32b0d624c9
271cd6e4030cfdb434
27ef5310c51b16ee31
27cb4419c5b7154bfb
2710c1f22fafcd34b6
2719caed03f7dcdb01
27fae7c93ab1b62fe6
2720aaba38f1d9a327
2828e5b70ec2d63ddd
2807b0f5210ad4eb4b
2852ccdf3ce2ec11b3
2847faeb182dd8ea39
2812b0fc06bde40e00
2846cf0038f9ccbc27
28152f40143c490912
28ff3513ea0bfb4e04
28f45628d52443f218
28c1242bd8cb0b0cf5
280fc0bb48aa0436f6
2844f7ca4ff2b2c42c
285bdbb625c8c63ee8
2833fdde3629e5d325
281aeae90bbcda22d4
2847f2e7221ab2ed41
281b1a171629161913
28032033d9e8393fee
282dc1c802d6fc3dd7
28fec1d02fecf7ec36
2820c5b814c1c203cc
2848bfbc3706bbe304
2819e2d31db4c935be
2808e6ce1dfec6dd28
281bdde646fbdf01bc
283ce1f03815e3dc14
28ee260cd62c3adf47
28e91f2f07f1281c0e
2825b4ac11cedd11e1
2834def447e6f6b53a
2831edbe2ca4ebfcfc
282ec7fd242ad2ac35
294ac3ef36e8e82be2
291ef1ee4827cecc33
294afdbd3eddc70fd2
2906d9d01a20dbc829
2943cebc52c1bc0fff
292ee6fb53fee8e025
29004a00ecf9f60326
29f23c1104f9252203
2900443bfa0329e407
29062025e2e9231e14
295af7db44d2fc07c0
292cc4d52a07d8e62f
2923f4c52dbd0437ef
294bc4ca51f6fec23a
2957c0ee18b4b726e9
293beefd4b0ab3df23
29081927163c1615ec
29d20f25f3eae72ff4
2912dcfc2df5ea3bc6
2915da0802ee01c60c
2947fdca21acda2fdc
2909e4de1520dead2e
292ecff543c8ce16e4
2949d2bf262ad8c41d
2928bdfc08e3e629e7
2917ccea291adfe746
29fc4f15e2381ce215
29d2131bd2cced05ee
2951c0d533f0ef4f00
294dd7c1210bcab758
2945cbda44bdfd2ebe
2909de05141ff7b84b
2a41a39c00cbd234cc
2a28b8a834f7c4a224
2a34c1a526c2db32bb
2a38b3e524f099a10f
2a2599c134afd20fc9
2a2e91cc22f7d4a6f8
2ac14324dd5332ef36
2ac85133f2ef404ecd
2abd1b23c13dfbdb2a
2aff2b2af9e3294ec6
2a1c90a319bfda11b7
2a1db7a6422bcc951a
2a33b9aa3797a31bb7
2a29d4a712e3c4930b
2a239fd02baaa4ebca
2af8d0981f1f9b87ff
2ad6334a0248030238
2ae43232e702353ada
2a3aa6d127b2c50db7
2a1897c64616d5ae3c
2a0f88c010afd422a1
2a0ca2c12225d48f3b
2a3191c03085d420b8
2a3d90c311e8dbad35
2a03aea824d6b202af
2affb3ab1c24e29304
2ad0564bcf3d0cd024
2abf5633da002b46f0
2a21b6b52ac2bc38c3
2a2dd4a80bf2d9c22a
2a45c3cd37b0be2b9a
2a25bbc34428b09b33
2b21cdbc2094dd44bc
2b09b6b72c26a4b410
2b2691d63b9c9f12a0
2b23ddbf48f7da913b
2b30c7ae36b3caffc8
2b31a6ab1712cda223
2bff4e23f30608f302
2bc2312c08e0240ac5
2bd81823e5422c0a0a
2bb73ffac9e53028c8
2b50bfdd39ddbd1fb9
2b05d5b04317b59f42
2b3e9ee33fccb938d9
2b3bb6d92bf3d2a342
2b39b7a934d6e748e0
2b25d2e628ffd2a557
2bc64843d50f02cafe
2bca380bf8db3146c0
2b44c9dd4bdebf31cb
2b26e4d41123b2ab3d
2b36a89e42cdaa0cd0
2b12d8c91c19c3b741
2b2fccc730a6ce4aaf
2b15daa3572cb9991e
2b34afca37ade107db
2b249dd81909e29d4a
2bdd1c0af14026d737
2bfb1ef8cef2331ebd
2b3da9ab5490b53ab1
2b32a6a94310de961e
2b4fa9c0459de507d5
2b1fb3a7190ddbd52c
2c1399d14bc9a838dd
2c29b9ab37e7cfcb21
2c2cb2d329cbcbfbb8
2c0bbfc2571aaba838
2c4bbec432b6c224b2
2c1ed5ac43e3d0d047
2cdb063bdf19330dff
2cc41c0ebd050c27d3
2cc13126c80227fb3b
2c012909d2d91840f9
2c2699af119fb232e1
2c0adbeb3405aec40f
2c15cbb220c1a318a0
2c27cad824efe9d84c
2c5193ce11c4e33eb3
2c3eb9c33c00bca345
2ce12321d50c0cfc17
2cc53f03b8c9043ebc
2c309fee1aacd73ced
2c2ca1b12df9aeb10d
2c569db5509ab00aed
2c02d8f54d2bc4a04c
2c55b7df4e9bbf14e8
2c2fc8ab2f27d79a26
2c2994cb3ebfc33dd3
2c37b1e7260decd72b
2cfd421fe914fdfeec
2cd243f7dad6120bdc
2c58c6d83bbbbf00c4
2c16b7eb3707bba21a
2c08c6a30caeca12d7
2c04a7e12c1bbf974d
2dffffe530ffffe0f5
2e0000107efffff0c2
2fffffe61e00000d51
30ffffd975ffffe68b
31fffff76f00001014
32ffffdffc00000144
33ffffeb2cffffec17
34ffffeb3efffff2fa
350000000000008e5c
36dde2e108f5ddc5f7
36b6e9d9dfbfcbdbd4
36d1dbd71e41cccbd9
36e1d01dd6cff9ef08
3605220b1dfe07ffe8
3600f1001311f72106
36f3cf03e3d1d0dcfc
36ed0812f5d2fef90d
360508ed3940fe1aea
36e00f3eeef6e41c1a
36eee2f5f8cefde2d2
36f6d4fbf2d4e0eae6
36db080b231ff0d4d7
36f601050205f3f0f5
360126324134fc2507
36371d351a21f61a54
361714db2f23d9d8cb
36f7c914f3e2dc0633
36fc3721e5c8292746
363d2acb230f1b10ce
36ccccc2edf1dfecc8
36c9010edfdaebccd5
36f3e921f1dff40e01
362226f90017fdeee3
36cfb6d1f7fdcaf3ee
36e4ffedf403d0dedf
36ecde0e01d70d10f6
36fc150a060c2410d4
36f5e609dce3221fee
36ec19f8e71a09dff3
36d1baa01003dfbece
36b8defdc1a7cbc725
37493e51cdd3412748
372e46aa4130424fb2
37f8e4d8220dd805ce
37d0d709d6f6e70636
3725281c0d2df93307
372c18350629071623
372f523de0b3373a3c
373c3faf2c36492ebd
37e3e6e14d34db17dd
3707f446e1e7e0192f
375e4f2bedb54a352f
37286db130342e44d3
371ef8eb3520e8f10e
370ee8140e150f060a
372000f32b491a15e9
3709064405f3eaf92b
37df06f24527ed01ec
37f8ee35fde2ea063d
37294765d5cc383573
374263d459614b64bd
37614829a6c25b594a
373f5fb74b612b27de
3744402fdad14b4f54
375645ca2f44392ad4
373e3754a2a63d4f43
37382fc01c67461c96
37345951bfa034383a
375738b04966603abe
3756673cbdb93b6e57
375169d73f4c745fb2
3701cfcd2801eedfe9
37cccc27c1e3f9c610
38333b20dbb325494c
384a4caa014b3d109e
38c5f9b8241cc6dcc3
38bddc13c8efb3c530
38e8230bfe2a0f23e4
38030c11130c051b09
38492c37bcc43e2818
382722e00e494b1abf
38c505d45855e1f5ba
38d2bd4dd3bdc2f766
384c463cace4193c52
38453cad1a3a5546ad
38e4e3f42c1be3f7d8
3801fa0ed1c6cff81b
38eacfdf6944ebd6c6
38fac74ad5dbbbe54b
38e4d6bb1e3ed5c4d7
38eeb514fbf1c4e324
38493160d1be435a5a
384a39c53d4f3558bd
38171c43d3df3b4a32
383646b729204129b5
38122447c2db3a314e
38383bb53d494146c0
38092817c4ce05421f
383010aefb301515c9
380ef91fd9f0fc093f
381323c1fb011affbe
38462462e7de5d2e36
384648e64e4e5d38e4
38e2e2df272fecb5bb
38abd542bddeb6e842
39f60216f0de03e007
39faedf2d6150ff6f5
39b4abcf5025d9c0a4
39b4ab2fa3c8c9be55
39d7d4b7464fd7e0d6
39e4d51dcec7c0c74c
391b1eebb7cb03faf7
39edf2cafd062803c8
39f400f64b51f00701
39fdcb1d0cdccd0658
3917ed12ead2eef80d
39f72abf2121fff9d6
39a2cad82049c5ddce
39e0a22cbeacdcb340
39d8adaa5f35b1c2b9
39a7a14cc7c7bdd03c
39c6dbda5224b2b8c5
39b0d04ed4b7a3db53
39270218b6d402f601
392318b81e38fa26de
39dde8e9eabc14f60e
390715f6dbf41af3ee
39f81bf7d2cf120100
39182ac7e91e30f0b6
390a0ff3c6bee70f08
390407e5ebfc13fcdc
39e8142be6b60b0c28
392718bf1d2011dad6
391f1c07b7bdf00728
39fe31d10306f518bb
39bb9699351a8790a7
399bb3488b9db08e4b
3a1b1d5899d642302e
3a2e3ecc45224b28cb
3af70cbf1c22cde8c2
3ac5fb14d4e8c2f539
3adecfc13433e8e5c9
3ad0c20feef1decc1c
3a34282b98c2162e41
3a344d9b1f423e06b3
3a15fee2131befdcfd
3ad70e23ffe0dced4c
3a300d3cd3d907391a
3a344db53a472e09aa
3ac3dbb92449dab5d7
3abdcd3ad4c4e8ce33
3ad7f5e41536d000ed
3acfd02eeac2f9cd39
3ad0dbdd353fd4f4e1
3ad5ef23f8c1f1ce49
3a1c0c20b7b3233345
3a203cb00c52202daa
3a441c48be9b463c3d
3a4e40b511572f2d9f
3a400c449aad252927
3a483e9c24521a10cc
3a513734b4a7462a5c
3a49219d303b411498
3a453c4da2be154f34
3a4441bb11564423ad
3a411743dac11d2939
3a1918cc3d3e2d2ebf
3ad5c8b7290dcbdfa8
3adae24aeac3cebf39
3b17021f8494081b2a
3b2f1d8a26441f09bf
3bdad9e71b3dc4d8df
3becbc3bf1c3b8e740
3bb2e0e5461fd4b7d0
3bcdca39ddd7b9b711
3b210f1aa0cb2e3307
3b2906ca0e381301aa
3b0100093c3ff90edf
3bf5dc250ad7dae44b
3b270e35bcb10a3e17
3b1515ae21420dfcb7
3bb3dbbe1744afd3d6
3bb9bb37b9c3ade048
3be0dfba4529ddc8b6
3bd7d335edb3b7eb33
3bebfbc03419dbd3d4
3be3ed3bceddddcd3a
3b1b093bccc3fa2c3c
3b0831d82a12050cc2
3b052208b292ff1b41
3b2446a3fe481422a8
3b12fd2dbecf1f213c
3bfa07b700042ff2bb
3b1dfc3681a4313c25
3b223fb9fb1a143282
3b09fa089dd00b0f1f
3b3216c3ed37061fab
3b202908a9e31c3e0d
3b311ca70f280c05c0
3bd6facf3606c8b9e1
3bb5c51be0d9e2f619
3cdce2e9e6c1dddbfb
3ce004e4d7f5dbc2e4
3cb1bfc22d3ecaa39e
3cc4c663a8b7b1b62a
3c90aaa92254b594a5
3c8d9d47c9a0cab655
3c1d2122dad21a26f9
3c0d2bdaf92710edb5
3ced03b34751e8f4ba
3cc1ea56c2cbc6ee24
3c1afd29aeb8241b2b
3cf2ffe9e30b150dc9
3c988dc232319ba6a9
3ca3b75eb887c89142
3cb0bdab332bd799a7
3cb6922fd7c5afd03a
3cb9e3ca2624aac1c9
3c9f9648c3c9d2c031
3c123433c7bf261e47
3c3825a01a393a05aa
3ce8d0facbc5ef05e9
3cf60bb9e3e8d1ced6
3c180c22b3ca052930
3c113bbb01080a0eb1
3c04d5f5e1cce605f4
3cdf16c1f0ecdbdce3
3c1b0e1cc3aced2920
3cf70aa7dd0012d6b5
3c09fb20add0051704
3cfb16af090f21efb8
3cc8cb964736b9979b
3cb39859bab8aea849
3d212520aec6163628
3d342ba51308fb05ae
3dded1ce504aecccd6
3de7bc40beb7dcdf37
3db0e6c74a37b5caad
3dd0b129bdddc0d520
3d222324ccce2e1321
3d2315c3fc0e3dfad4
3df219d03527e2f9db
3dd8f76104fb0d0f3a
3d140e21dce52d242f
3d1311bc150e020fd8
3ddceeec413bb9beba
3dedd529dfd6e3cb5a
3dd3e6d42422e0ddba
3dddd00ac6e9c4ce19
3ddfedf04b26c3ddb4
3dc5f12cc3eac1c935
3d341c0ac5be2e0515
3d3f45c5f8071bebe8
3d090f2ab3b705033d
3d3706ce2226fce8af
3d1e2d09b2b5333440
3d1a20db362e4508cb
3d3a090ba2b3192419
3d3a2ab2141f2408d0
3d212939c0c4080c26
3d3933c3272c1af9ad
3d2d2d40a8b132051e
3d202bbefd383505cd
3df5cdb53528ecdad4
3dddcf5cf1cdc8cc36
3e101341b59c18383a
3e3205950e0523259c
3eeffdf51e4be6f118
3e0d183dff1400f535
3ec1dbf3481ad8e6c8
3ee9e32fc6babcc62f
3e0d1f32e8bb09270a
3e223cdb30203913ac
3e1904021430fbefea
3e1dee4c2506e90c41
3e142c27aac53e3829
3e4342dd19241d13c1
3e100ffa0b08feea0c
3e1802210308051939
3e08ed0d0824e3ffea
3e11030313f6ebf8f8
3ee706d21a44f70907
3ed4d935e7f70ff825
3e0b1302d1f31732fc
3e2d10db0a03151ecb
3e2e2821a1a51a2926
3e1d10a802391feaa2
3e020b16dbf5fa0b08
3e2e18be1e1911fcce
3e19fd39adae352445
3e3626b6f5433d20b2
3e191c01b6a8132e02
3e0635c2e82930e7d0
3ef6181ca9e3162412
3e272dc20e301411d2
3ee921fb3a400a140a
3e06f33dfdeddff533
3ffffffc41ffffec9b
40ffffe2bd00000d44
41ffffd6aa0000187e
420000045d000012e6
43fffff8d4fffffe94
44fffffd63ffffe9ae
45ffffd30affffcd51
46000017dbfffff7c4
47000000000000a929
48faeb1af827e9f920
48e40215170d290dee
48051310f012010a27
481feffe180b29f90b
48fbeffde4f7eaf60d
48f2f908110a11f700
48f8effce2eaf610fe
4817efd9f8dee9e90c
48dae70ecf1ddec728
48da1e102a222efecd
4805fca2efadd811bb
4818aba2b09acaa80d
48fe121111fa0f070c
4815f1090402ef001a
48dbcf36d047d8b74a
48bd35462a3c4c53c2
48e7e652d543cfd659
48d25d4c5a5b5e46e0
48dbd91acb21fad82c
48cd1d3841372d3cc5
48c6f417e404e6ce0a
48ed101202fff9f4ce
48fe07fef0fcf4f324
4800e80b12eb10ede2
48b9c14dd331d0d335
48ba4e4d39453e52c8
48fcf3e0f7f1f6fe09
48e4e4020ae712dcea
4809e947e734fde645
48e2354d4f4a3c33e4
48ef00140f0f0a1afe
4804100c1207022014
49f8ef1bde1aecfa1d
49e8180c27292014e6
49d3c3f8c1e6d5d4ff
49ded6f60ee00ae5cf
49e0eff2e7f4f5e0f0
49fdebf317fefafaf8
49fce928dc27dbdd46
49f32b2c40383f31e3
49d6e11edc1cc5da22
49dffd31200c2607c7
49f8ddf8dbf6def302
49eccffa0acff2bff3
490a0bdb0af02024c0
491cdfe9caeadbf61a
49d6e437c42be0cc1a
49cc2b3d2c35315bcc
49c9cc28c71aeecb3c
49e3313830343a21c7
49eaf510de2307e00d
49d51d3628291931e2
49a6c60cb020e1c928
49ca183e1b2c2e19cb
49eee8e4eef708f80b
49ebe9f907faf7d6e5
49ecdc22c61ee2d511
49d814170d211621e2
49fcf7d6e0fbe6e8d8
49e7edebf0f6e0e4f6
49f7e03ee350fceb32
49e1455244445238ea
490010e40ed412fac4
4909c6d2bee8aee410
4a0c18f8fdf3fd00d2
4af9f6f7eefde8fa05
4af20ae0e5d503f3d9
4a15d0e1fec0eac808
4aff03dbfcd50f05ea
4a04d4d2dce0ede2f2
4ac2bf02bf21d0bd13
4ac21c2730132209bd
4a01fffad9f4f9f90c
4af8e5f516f40ffae0
4aeadaefd7f6d9ec1c
4afae90707fe22ead2
4a0c280b23f30e2cfd
4a2ce6dbe6f6eb031a
4a0612330630ff0339
4a0e3538273e2752f6
4afcdb24dc1fdbdd1a
4ade2212260e1f30f3
4ae3f6f7f10620fb06
4a0311060303f11c0c
4ae5e421e027edd430
4ada3a322e363630df
4a0118e013cbf6fee2
4a0ae3d9d2ded6c4f7
4ae5061aef0500de06
4a01190623050b23f2
4a1526e909dc0007d9
4a09f9f9ebe8f6f813
4af0063d0336f60340
4af439413d24362ee8
4a0517e918c31627d2
4a18dcd5d8c7d6d327
4bede742d751d6cf59
4bd53044512e5245ea
4be8f040d84bd0d970
4be5494c6f447730e2
4bd4e32ad93ecaf250
4be5264059365621e3
4bfe04c2efd3e9f8d9
4bf7c0d0ebceccbb02
4be3e805ca10f3ed2c
4bdf061431fb2f12d2
4bcadadff2e2e9d6f6
4bd3ccf1f8dfdddcd9
4b000cfa14e6251bf7
4b1cf7e1f603dfec2b
4bbec821d130c2b322
4bb5303019250f29cc
4bedfb28d518f9d318
4bd310181e221031db
4b4830ac18b72a44be
4b2dc1c7b4b2b9c236
4b240fa60bad17239b
4b3690a79eb099b727
4bcbc633d627c2ca53
4bdd3b2e61255720e3
4be8e502fafb04e8fc
4becfa01f4f0ecfae4
4be2e047d750d5d850
4bca304860285b48ce
4bf2ff26e622faf02f
4be1374330313033df
4b1d22fd0bef2025ea
4b1d06e1ebf3fa0228
4cbfd812da1ebdbf36
4cce10444d293022cb
4cdac500c227cfc816
4cc8073726271f0dd3
4ce9d708de03d4cbff
4cd70b20230f0e24ee
4cbedf13d01dccd63c
4cd3173c4c1a3f1fd6
4cd4d812bafdc8bd17
4cd0101e1efd1c13bd
4cdcca21d120d8e338
4cd12e3337283d26db
4c2a27d229d30f31c4
4c18e3c5b7e8d2e012
4cb9bce5c504ccb9e2
4cd1ef04e801d213c1
4ccdd701f408e0eafa
4cef03021a0b130cde
4c0e09a11bad0a24b2
4c1db6bda59ca6a81e
4cf7fab909c00bf5ab
4c0ac8b6bec0abcc08
4ccddd01e521bbc41f
4ccf182a2d201d1ada
4cd9dfc2ecccecd3c5
4ce2d1c6b7dbc0d7f5
4cd5e220d021dbcb2e
4cdd2a303029304ad0
4cdfef17da06f9ea28
4cdc19182e291026dc
4c1703bd06c6241bb4
4c1adad6c0c1b9d309
4debfc06e6f8f3e912
4ddafa07f7111311fb
4d011de512f90011ff
4d00e3f40900efe110
4d1705f201f3f313e0
4d03f8f6f4efeee1f8
4dc2bb28b425a3ba29
4db904222525200faa
4dd3da06c400e7d605
4deaf1231000260acb
4da9b43cc73cb1b144
4dc253465e4b4d44bf
4d2325041cfb1e27f7
4d20e6deed08e3f823
4df901e6f3fffb03eb
4dededfaf603fcf8e8
4de3edf9effaecedea
4dee1016f8faec22f3
4d1e128512802c2aa2
4d3b98869d95a1922e
4d2437ba2db42323bc
4d3eb8baaeb4b2b22a
4dfafad1f2d6090ff2
4d10effce1d6eaf50e
4de5e7bffbde0af9bb
4dedc6c3dbd0d5daf2
4df6f522f12fe6f13b
4dda363c35312929e7
4dfe060af31defe422
4de80c1f0a181115e3
4d211fdb0be90911d1
4d28f0eae1dfdade07
4ed4f025ed1adddd3a
4ed331283e2b3933da
4ee5e426bc24e5e42e
4ef11413250d301fcf
4eeef220ee23e0cc2b
4ed82830312a2422ef
4e1803ccecbb05f0da
4efbd5c5ced3e7cb0a
4ef0f3eff6f102e915
4e0d0205090417f8f8
4eee09dfeeca0910d7
4e0fc9d2e4d3cce3f1
4e0e14031cee2c27f3
4e2bf8f2eefd020123
4e3555c84cb9644cc1
4e3fddb4afc9b2d93d
4e2b16e922d7272ce9
4e26efe3d6eae2f429
4efe0ef714000a0ff5
4e1df4f8fae8e7defe
4e101be209eaf917cf
4e20e4dadff3d5c409
4ef7dc36ca37d9ed4b
4ee73e3551403c30ec
4e2b3e0134fd4e4c0b
4e4cf1f70cea0bfa3d
4ed6eb1fd93ed4d324
4ec2362e2d3f2e24db
4ef2f11df511ede906
4ee30b0709241d21fe
4e00111d06061c1a12
4e102229231b072607
4fe8ef0ee500f7f106
4fda101b07010c0bec
4fd1dbfdcefdd0d403
4fd9f4091df9fdfcdd
4ff2d7fecf17e2d41c
4fe3012a141b2617e1
4ffb08f7f209f2e319
4ff0010a0a022902fc
4fe8e4f2d1ebe6eb00
4fd8fef207e7feeed3
4fbcdb2fb53ed6d144
4fe93a263f2f4b1dcc
4f0b27e90bf41a0fde
4f09fff6f8f0e2f70f
4f211e95199d182389
4f22b6aa90b789be1f
4f0c2cb112ba3219d8
4f16c4c6b5d7ccd616
4fea00140416f3f70c
4ffe00f8010d11feec
4f0909e81efc0825d4
4f11dddee2f9f3e922
4ff6ef18e012dbcf1f
4fe7272f38141429ca
4f322db222aa1d3bb7
4f1eb8b8a7ac97bb21
4fdce015ee2be3d611
4fed10312227222cde
4f090401f5fff3f205
4fecfe0d06100a15f4
4f08fffa0205050afd
4ffb0300fd04081013
5010f6cffbeb15f9d1
50f8e1e8cae8dbd60c
50f206bae1d6e6eecb
5002b4e2caccbac5f7
500813d705e7f501cc
50fbcee5ede8d8e5ec
50f1ecfffef10cea01
5001ee05100e0a0bfe
50f7ece9e0f5e8e1f7
50e4dcf704fafddbf2
50cbd34cc538b7bd31
50b9323e4b423f3fab
500a04190d181b0605
5012180c0d0f0efe1a
502f26d41ccd3b25d0
5042e3e2cee8e4c739
50242cbf28b7372cb4
5019c1caa4b5bcda2a
50f10207020bf5ea0b
5009fb170109f6ecef
502b11e81fee2d3501
5031e4fe0dddfde920
501219c90af20009db
50fed8e7deefd2cfff
504c56bf3dcb4f57c6
503cc1a1a3cdb4d254
500f0f0cff0af8e603
5000050aeef1040af7
501703f5fbe51007f0
500cf4d4d2ebed0015
50f4eb22f504fb0e15
5009031c1609120b0e
51ffffe516ffffdb62
52ffffe412ffffdef6
53ffffe2a3ffffd3c9
54ffffa56bfffffaf4
5500000083fffffb57
56ffffea7afffffd21
57ffffe958ffffcddb
58ffffe24cfffff71e
590000000000012c07
5ac80ed8f6dfd4c9d8
5af8e3dfeecb0d1ced
5b3ffe12f71f1b2429
5b041f1f252de5eb25
5cedf22c2d42132313
5ce71907cd04dfdc02
5d2118d0d6a2e8ed00
5d1a03f32dec2021ff
5effdece3a04223ff8
5eecfafbff1ff9fd15
5ff81c21bee7d0bc02
5f000a0512dafe06f5
60dd05caf1e3d5c6d0
6009f0befed11f03ec
6112f23f06092d2330
61f31244102bf2fb18
62b8fc2409f30d0402
62e80a09c000dedfe7
633ffbe3fa04f4e2fc
6317f8e438ed152233
64e0e76c2e3c294c39
64e81d40c536e9f4e8
65371481cacec6cfd8
6507d0c029b3180512
66f8d6274c23557031
66f92a31c55eafc60c
671818c2b7e0a9a9da
670addbf469e5133f7
68dd0ce500dd24231d
68021b17db16e900f0
69340b2d0122e2eef6
69f3fae722d716060b
6a17e3f33d1b063312
6ad910eb1703f5d625
6b012c0dd7de01cf04
6b0ef008f901171fea
6c2fe73b5159243f21
6cda322e120fe5e627
6de821d2b1a1d7d6d5
6d18d7e9f2f0241dc5
6e57db2a4d4e283332
6eda35411b38c3c04f
6fac0fe4c4aed0cfd1
6f26bcd3f3da223ca2
703beee619ef191924
70f80f221017eb000d
71c21202fc0ee3f5e4
7113d6e0e4f51209f2
72fa07d0d7dae0cee3
7202dcce31e43023ff
73f8fe2e2320112d23
73e9111bd121e0f716
74f000e0eeeedecdf5
74fffacd0ed61115fb
7501f919130f1a2b18
75f3f433e31bdaf5ff
762811b7e0dfd0b0f4
760c10d333d737271f
77d20358340b1d551e
7704f914d724d2cad4
780001b7dbd9e9cde8
7816f8ce0def3139fe
7902f934251f123821
79fa1d19ea1ccfd2fe
7a0000004e00000f2c
7b0000000000010dad
